1111111110000000
1111111101011111
1111111101000111
0000000011111101
0000000101100000
1111111110111100
1111111100100101
1111111100101110
0000000100001101
0000000001011101
1111111100111000
1111111111010100
0000000010001111
1111111100110010
0000000001110010
1111111100000100
1111111010101111
1111111111010001
1111111111000110
0000001000000011
1111111011000100
0000000011101111
0000000000011111
1111111111111101
0000000000111100
0000000010001101
0000000101001011
0000000100111101
0000000000011010
1111111100111010
0000000000001111
0000000001001110
1111111111111110
1111111101111101
1111111100000001
1111111100001000
1111111101111100
1111111000011100
1111111100001110
0000000011010000
1111111110101000
1111110111111000
0000000010111100
1111111110110010
0000000001110110
0000000000110101
0000000010010011
0000000000001001
0000000000001111
1111111100100110
1111111101110111
1111111110001011
1111111001011110
1111111110101110
0000000001010111
1111111110101111
1111111001011111
0000000000001101
1111111100011001
0000000011100000
0000000000000101
1111111110110001
1111111111100111
1111111101010001
1111111110000100
0000000010100001
1111111100001000
0000000101000101
0000000011100011
1111111111000010
0000000010010111
0000000001011100
1111111010100001
1111111011100110
1111111101001010
0000000001010000
1111111111101001
1111111111011001
0000000001000001
0000000011110001
0000000010001000
1111111011010111
1111111111100100
1111111110100000
1111111000010001
0000000101001011
1111111110111011
0000000000111000
0000000000011110
1111111111000010
0000000100101110
0000000100111011
1111111010100101
0000000101000101
0000000010110100
0000000101010010
1111111011110000
0000000010100001
1111111101111100
0000000011101110
1111111100000010
0000000010000101
1111111111111000
1111111111111000
1111111101010011
1111111101110100
0000001000001011
1111111011101001
1111111101000101
0000000001011100
1111111110000101
1111111110111101
0000000000010011
1111111111000101
1111111111000100
1111111101000011
0000000010110010
0000000110101010
0000000000110111
1111111100101010
1111111101110011
0000000001000110
0000000100001000
1111111111001000
0000000001111011
1111111111100100
1111111010100110
0000000010101011
1111111101011011
0000000001011010
0000000010000001
1111111011110000
0000000001010111
0000000001011000
0000000111101100
1111111110000100
1111111111010101
0000001010001101
1111111001101101
1111111110111111
0000000011110101
1111111011101110
0000000100111110
1111111111110110
0000000000001110
0000000001010100
1111111100110101
1111111011010111
1111111010110011
0000000000111111
0000000110000011
0000000001101001
1111111011101101
0000000000111000
1111111001000101
1111111111001001
1111111111100101
1111111100111100
0000001000100010
0000000000001000
0000000001000111
1111111101110011
1111111101010001
0000000000000010
0000000110001110
1111111101010000
1111111111010111
1111111011001101
1111111011100110
1111111111111111
1111110111110110
0000000010100011
1111111111001101
0000000000110000
1111111110010110
0000000011110000
1111111110111001
1111111110000101
0000000101110000
0000000100111101
0000000000010111
0000000100110110
1111111110000010
0000000010011010
0000000000111100
1111111011100100
0000000110001111
1111111011111000
1111111101101011
1111111101101000
1111111111011001
0000000001101111
0000000010011110
1111111111001101
0000000000110000
1111111100101011
0000000010001110
1111111110000111
1111111111100100
0000000000100110
1111111100011111
0000000100110110
1111111110100100
0000000100100011
1111111110101000
0000000000010111
0000000000010010
1111111101111100
0000000101111110
1111111101100110
0000000011010001
1111111110111000
0000000001011011
1111111110011101
0000000010011110
1111111101111100
0000000101010111
0000000010001010
0000000011000001
1111111110101001
0000000000111000
1111111110111001
0000000000101111
0000000100010100
1111111111111101
0000000000100110
0000001011110001
1111111101011101
1111111010011101
1111111111010010
1111111101010010
0000001000001100
0000000010110110
0000000001010011
1111111011000001
1111111100001011
0000000000111111
0000000100000000
1111111011111101
1111111101000001
0000000001010010
0000000010100000
1111111110011110
1111110111111110
0000000000100101
1111111111011001
1111111101011010
0000000001110101
1111111011101111
0000000001101110
1111111100101110
0000000010001000
0000000010111110
0000000110110100
1111111000001010
1111111111001100
0000000100000110
1111111100111011
0000000011100101
1111111111110101
0000000000100010
1111111111001111
0000000100101000
1111111010011010
1111111110111100
0000000111101101
0000000010100001
1111111111101010
1111111110000000
1111111010110010
0000000001000110
0000000001000010
0000000100010101
1111111100101111
1111111111101000
0000000001011000
1111111100101101
0000000000111011
1111111100111000
1111111010101110
0000000011000101
1111111011100100
0000000101100010
1111111111100000
0000000100000011
0000000000101011
1111111101111001
0000000010111011
0000000000110110
0000000010100001
0000000001100100
0000000001101011
1111111110000111
0000000000100110
0000001000011101
1111111011010110
0000000000000110
1111111101100100
0000000001100000
1111111111100110
0000000111001010
0000000100001100
1111111101010110
1111111100001111
1111111100100010
0000000110101001
1111111101010000
0000000011100110
0000000011010010
1111111111011101
1111111011111010
0000000111000110
1111111100011001
1111111110100111
0000000011110000
1111111101011000
1111111111110010
0000000010010101
1111111110110110
1111111101111010
1111111110011011
0000000110010011
0000000001011101
0000000001000100
1111111110000100
0000000000111010
0000000101111001
1111111111110110
0000000010110101
1111111110010100
0000000101110100
0000000000001101
1111111101101011
0000000000111001
0000000101100001
1111111111011100
1111111101110011
0000000001101011
1111111111111010
0000000001000011
0000000011010001
0000001000010101
1111111110100110
1111111110011101
0000000010010100
1111111011110110
1111111101011101
1111111100110110
1111111110100111
0000000000000001
0000000101111000
1111111110011010
0000000010011101
1111111110001100
1111111001010100
1111111100000001
0000000000000000
1111111101111000
0000000000100001
1111111100110000
0000000010001100
1111111100111100
0000000000101010
1111111100010011
1111111010110101
1111111100001001
0000000110101000
0000000100100000
0000000001000000
0000000010011011
0000000001011010
0000000001100001
1111111011000111
0000001010000101
0000000000011111
0000000010011001
1111111111110111
1111111011100010
0000000001011000
1111111011111011
1111111101100101
1111111100111011
1111111110111111
1111111001011110
0000000001101110
1111111010111100
1111111010111110
1111111100110001
1111111110001000
1111111111101000
0000000100111100
1111111111110001
0000000000011010
1111111100100001
1111111011101001
0000000010000010
1111111110100001
1111111111000110
0000000001000101
1111111110000011
0000000110110100
1111111110000110
0000000001110100
1111111101000010
0000000100111001
1111111010000001
0000000000011100
0000000010110111
1111110111110000
0000000010011000
0000000011101001
1111111111000100
0000000011000101
1111111101110110
0000001000100100
1111111000101000
1111111110010010
0000000000010111
0000000001000010
1111111010001010
0000000010111111
1111111011100101
1111111111100111
1111111100110101
1111111110001111
1111111101010010
1111111011010000
1111111100000110
1111111101001100
0000000000010110
0000000101110100
0000000100011000
0000000100001110
1111111100101100
0000000010111100
0000000001010100
1111111101000110
1111111000010000
0000000100110010
0000000001010000
0000000011011010
1111111101100000
0000000011010111
0000000010001111
0000000100110110
0000000001111001
0000000110001000
1111111111101110
0000000000100010
1111111110100011
0000000000101100
0000000000111100
1111111100110001
1111111111011110
0000000011010101
0000001100001110
0000000001001001
1111111101111000
1111111110111010
1111111101111000
0000000010000101
0000000000101111
0000000001100100
0000000000000011
1111111101000101
1111111100110101
0000000010010010
1111111010111100
1111111100110001
1111111101011101
1111111010111010
0000000011110101
1111111110010001
1111111100101000
0000000010100101
1111111100000010
0000000111011110
0000000000101100
1111111110100111
0000000001110101
0000000010101001
1111111110110110
1111111110111000
1111111110011101
0000000010100010
0000000001011001
0000000101001111
1111111111110111
1111111111011111
0000000010100010
1111111011100101
1111111101001011
1111111100101111
0000000001101000
1111111110101101
1111111101010111
1111111111010000
1111111100101110
0000000010000001
1111111111001010
