0000000000010010
1111111000010000
0000000000111000
0000000000101100
1111111000110101
0000000001111000
1111111110101100
0000000111110110
0000001000011010
1111111100000011
0000000100101101
0000000111010001
0000000010010110
0000000011011010
1111111101001101
0000000110110110
0000000100100010
1111111111111110
0000000101100101
0000000101011111
1111111101101100
0000000010011110
1111111000110110
1111111011110101
1111111111101010
0000000001010001
1111111110000010
0000000010110111
0000000000110100
0000000000010000
1111111111111010
1111111111010110
1111111110111110
0000000000000000
0000000010100110
1111111111010010
0000000110011101
1111111100010101
0000000001100100
0000000101000001
1111111101000100
1111111101011010
1111111011110101
0000000010111000
1111111101000011
0000000000011100
0000000000001100
0000001000111110
0000000000111111
0000001000100000
0000000000100101
1111111100111111
0000001010110111
1111111100101100
0000000010010000
0000000000110011
0000000001101001
0000000001010100
1111111110101010
0000001000001101
1111111100101110
1111111110100010
1111111110000010
0000000001110010
1111111111000110
0000000000011101
0000000101010011
0000000001000000
1111111101011110
0000000010000011
1111111100001001
1111110101010011
1111111101100101
1111111110101001
0000000001010110
0000000010111011
0000000001100001
0000000001001110
0000000110000000
0000000001000011
1111111110101000
0000000100110110
1111111101110100
0000000100110001
0000000010110001
0000000000011010
1111111111111011
1111111110111100
0000000101011110
0000000001100010
1111111111001010
0000000011011011
0000000001010010
0000000001110111
1111111011000110
0000000001010111
0000000100101100
0000000010000100
1111111110011111
0000000001111100
1111111011010001
1111111110100100
0000000001011110
1111111110011101
0000000000010110
1111111001111001
1111111111010010
0000000010001011
1111111000001000
0000000011010000
1111111100100011
1111111101010110
1111111110110100
1111111100110001
1111111100101000
0000000010110000
0000000001000111
1111111101100011
0000000010100110
1111111100001000
1111111000110010
0000000000010111
1111111010011000
0000000000110111
1111111101011001
0000000000111011
1111111010011000
0000000011000010
1111111011000101
0000000110111010
0000000001010001
0000000011011010
0000000000000000
1111111100010110
1111111100110010
0000001010000111
1111111111111001
0000000000011110
0000000001101010
0000000000100100
1111111010100110
1111110111111011
0000000000101110
1111111101111011
0000000100110011
1111111111010001
1111111101111111
1111111111110000
1111111101100011
1111111111011010
1111111110110000
0000000001011110
1111111001111011
0000000011001111
1111111101111001
1111111111000101
1111111110111100
0000000010000110
0000000000011001
0000001011000101
0000001000000101
1111111110100001
0000000000001001
1111111111100100
0000000001001000
0000000011100111
1111111110111000
1111111101110110
0000000010000011
1111111111111111
0000000101111110
1111111100110001
0000000011110100
1111111111001010
1111111101001110
1111111111110001
0000000111100100
0000000001001001
0000000100000111
0000000011010100
0000000000100011
1111111010001111
1111111010111100
0000000010101111
0000000011010011
0000000100111000
0000000010011011
0000000101101011
1111111101010001
0000000010001010
1111111111011001
1111111011111110
1111111111010101
0000000001110110
0000000010111101
1111111111111001
0000000000101011
1111111110100000
0000001000101100
0000000000100011
0000000100011000
0000000010010011
1111111101010000
1111111111000101
0000001000010100
0000000011011101
0000000001000100
1111111100000001
0000000010000010
1111111101011111
1111111011010011
0000000000001000
1111111100111011
0000000111010011
0000000100100101
1111111100101000
0000000100101001
1111111110001010
0000000001110101
0000000011101110
0000000100111101
1111111001001000
0000000110001010
0000000101000010
1111111111010101
0000000101010111
0000000000010010
0000000001001110
0000000100100001
1111111001111110
0000000000111010
1111111000010111
0000000010000011
0000000100010100
1111111001111011
0000001000100001
0000000000111001
1111111110110110
1111111111000011
1111111100010101
0000000010011000
1111111110101001
1111111101011011
1111111100010000
1111111100010110
0000000011010001
0000000000010011
1111111110001010
0000000100110101
1111111011110010
0000000110100111
0000000001011001
1111111110110011
1111111110001011
1111111110010011
1111111101000101
0000000011100000
0000000010011100
1111110111000011
1111111000010000
0000000001001011
0000000010011011
1111111011011110
1111111100110100
1111111111000101
1111111010011001
1111111111010010
1111111001010100
0000000001000111
0000000001100011
1111111001100101
0000000100111001
1111111111010101
1111111111010110
1111111101101000
1111111110101001
1111111111100101
1111111111011100
1111111111000100
0000000111000010
1111111011000011
0000000010110011
0000001011001001
0000000000111010
1111111101101000
0000000000110101
0000001000110101
0000000010000001
1111111111001100
0000000110000010
0000000000111111
0000000100011110
1111111011000111
1111111100100111
1111111111110111
0000000000111101
0000000101000111
1111111111111110
0000000000101101
0000000000011010
1111111100000011
1111111110011010
1111111110111000
1111111011011000
1111111101101101
0000000000111010
1111111100001000
1111111101000000
0000000011100001
1111111011001011
0000000100110100
1111111101011001
0000000000101100
0000000000110100
1111111100000111
0000000001011001
1111111001110001
1111111101001111
0000000000001000
0000000100001011
0000000010110010
0000000011100010
1111111010100110
0000000100111111
1111111111111101
1111111011111101
1111111010101100
1111111110100011
0000000100001000
1111111111000011
1111111111000100
1111111010010011
0000000010100111
1111111111010000
0000000011100000
1111111111101001
1111111011100111
0000000110011000
0000000100001110
0000000001100000
1111111100011001
0000000001011100
1111111101010001
1111111111100011
1111111101110000
1111111100101111
0000000010001010
1111111010101111
0000000000111111
1111111011010011
1111111110111001
1111111101010010
1111111100001100
1111111101100000
0000000100011111
0000000111001001
1111111111110001
0000000101000101
1111111010101000
1111111100100111
1111111010101111
0000000100011111
1111111101001001
0000000000011001
0000000001000010
1111111110100100
0000000001111101
0000000111100010
1111111111101110
1111111111010010
0000000001101100
0000000001111000
0000000000110000
1111111111011000
1111111101011000
0000000011111001
1111111110000100
1111111111100111
1111111001100011
1111110111111011
0000000000111010
0000000010111010
1111111100100000
1111111100110110
1111111110011000
1111111111101001
0000000000001111
0000000000100010
1111111111101011
1111111101011011
1111110111111110
1111111110101110
0000000001000110
0000000101010100
0000000000000111
1111110111111100
0000000000110011
0000000010001001
1111111110101110
1111111111010110
0000000101000111
0000000010000111
0000000100101000
0000000001000111
0000000110100000
1111111110010111
1111111111100111
1111111101110000
1111111010100000
0000000010000000
1111111011101010
0000000001101010
1111111101010101
0000000100110101
1111111000100110
0000000100101010
1111111001001100
0000000010010001
0000000001010001
1111111110111110
0000000101000100
1111111011101101
0000000010111101
0000000010100110
1111111110110010
1111111101000000
1111111111001100
0000000000010101
0000000010111111
1111111111101010
1111111111001010
1111111110011011
1111111110110101
1111111101111110
0000000100100111
1111111110100111
1111111110111001
1111111001111011
0000000001100000
0000000010000100
0000000011111000
0000000011101100
0000000100001011
0000000000110011
0000000100010110
0000000010110011
1111111000111111
1111111110110100
1111111101100110
0000000100111111
1111111100010000
0000000101110110
0000000001000100
0000000011100010
0000001000101000
0000000100110000
1111111110001101
1111111100100111
1111111110010101
1111111101111100
0000000011111101
0000000001000101
1111111111001000
0000000000000011
1111111110011111
1111111100011010
0000000000001111
1111111001010011
0000000010100111
0000000110100011
0000000000010100
0000000100101010
1111111011100111
0000000000100111
0000000000101001
1111111101110110
1111111000101000
1111111110001001
0000000000011100
0000000011011111
0000000001010100
0000000011000011
0000000100001011
0000000000000000
1111111100010110
1111111111011011
1111111011100100
0000000001011110
1111111101000010
1111111111011101
1111111110001001
1111111111100010
1111111110101100
0000000010000111
0000000000001101
1111111100111111
1111111111010110
0000000010001011
1111111101100110
0000000010000111
